const unsigned char model_tflite[] = {
  0x1c, 0x00, 0x00, 0x00, 0x54, 0x46, 0x4c, 0x33, 0x14, 0x00, 0x20, 0x00,
  0x1c, 0x00, 0x18, 0x00, 0x14, 0x00, 0x10, 0x00, 0x0c, 0x00, 0x00, 0x00,
  0x08, 0x00, 0x04, 0x00, 0x14, 0x00, 0x00, 0x00, 0x1c, 0x00, 0x00, 0x00,
  0x94, 0x00, 0x00, 0x00, 0xec, 0x00, 0x00, 0x00, 0x60, 0x08, 0x00, 0x00,
  0x70, 0x08, 0x00, 0x00, 0x24, 0x0e, 0x00, 0x00, 0x03, 0x00, 0x00, 0x00,
  0x01, 0x00, 0x00, 0x00, 0x10, 0x00, 0x00, 0x00, 0x00, 0x00, 0x0a, 0x00,
  0x10, 0x00, 0x0c, 0x00, 0x08, 0x00, 0x04, 0x00, 0x0a, 0x00, 0x00, 0x00,
  0x0c, 0x00, 0x00, 0x00, 0x1c, 0x00, 0x00, 0x00, 0x3c, 0x00, 0x00, 0x00,
  0x0f, 0x00, 0x00, 0x00, 0x73, 0x65, 0x72, 0x76, 0x69, 0x6e, 0x67, 0x5f,
  0x64, 0x65, 0x66, 0x61, 0x75, 0x6c, 0x74, 0x00, 0x01, 0x00, 0x00, 0x00,
  0x04, 0x00, 0x00, 0x00, 0x94, 0xff, 0xff, 0xff, 0x0a, 0x00, 0x00, 0x00,
  0x04, 0x00, 0x00, 0x00, 0x08, 0x00, 0x00, 0x00, 0x6f, 0x75, 0x74, 0x70,
  0x75, 0x74, 0x5f, 0x30, 0x00, 0x00, 0x00, 0x00, 0x01, 0x00, 0x00, 0x00,
  0x04, 0x00, 0x00, 0x00, 0x86, 0xf7, 0xff, 0xff, 0x04, 0x00, 0x00, 0x00,
  0x0b, 0x00, 0x00, 0x00, 0x69, 0x6e, 0x70, 0x75, 0x74, 0x5f, 0x6c, 0x61,
  0x79, 0x65, 0x72, 0x00, 0x02, 0x00, 0x00, 0x00, 0x34, 0x00, 0x00, 0x00,
  0x04, 0x00, 0x00, 0x00, 0xdc, 0xff, 0xff, 0xff, 0x0d, 0x00, 0x00, 0x00,
  0x04, 0x00, 0x00, 0x00, 0x13, 0x00, 0x00, 0x00, 0x43, 0x4f, 0x4e, 0x56,
  0x45, 0x52, 0x53, 0x49, 0x4f, 0x4e, 0x5f, 0x4d, 0x45, 0x54, 0x41, 0x44,
  0x41, 0x54, 0x41, 0x00, 0x08, 0x00, 0x0c, 0x00, 0x08, 0x00, 0x04, 0x00,
  0x08, 0x00, 0x00, 0x00, 0x0c, 0x00, 0x00, 0x00, 0x04, 0x00, 0x00, 0x00,
  0x13, 0x00, 0x00, 0x00, 0x6d, 0x69, 0x6e, 0x5f, 0x72, 0x75, 0x6e, 0x74,
  0x69, 0x6d, 0x65, 0x5f, 0x76, 0x65, 0x72, 0x73, 0x69, 0x6f, 0x6e, 0x00,
  0x0e, 0x00, 0x00, 0x00, 0x70, 0x07, 0x00, 0x00, 0x68, 0x07, 0x00, 0x00,
  0x18, 0x06, 0x00, 0x00, 0x08, 0x02, 0x00, 0x00, 0xe4, 0x01, 0x00, 0x00,
  0x94, 0x01, 0x00, 0x00, 0x44, 0x01, 0x00, 0x00, 0xb4, 0x00, 0x00, 0x00,
  0xac, 0x00, 0x00, 0x00, 0xa4, 0x00, 0x00, 0x00, 0x9c, 0x00, 0x00, 0x00,
  0x94, 0x00, 0x00, 0x00, 0x74, 0x00, 0x00, 0x00, 0x04, 0x00, 0x00, 0x00,
  0x36, 0xf8, 0xff, 0xff, 0x04, 0x00, 0x00, 0x00, 0x60, 0x00, 0x00, 0x00,
  0x10, 0x00, 0x00, 0x00, 0x00, 0x00, 0x00, 0x00, 0x08, 0x00, 0x0e, 0x00,
  0x08, 0x00, 0x04, 0x00, 0x08, 0x00, 0x00, 0x00, 0x10, 0x00, 0x00, 0x00,
  0x24, 0x00, 0x00, 0x00, 0x00, 0x00, 0x06, 0x00, 0x08, 0x00, 0x04, 0x00,
  0x06, 0x00, 0x00, 0x00, 0x04, 0x00, 0x00, 0x00, 0x00, 0x00, 0x00, 0x00,
  0x0c, 0x00, 0x18, 0x00, 0x14, 0x00, 0x10, 0x00, 0x0c, 0x00, 0x04, 0x00,
  0x0c, 0x00, 0x00, 0x00, 0x24, 0x72, 0x73, 0x96, 0x4b, 0x51, 0x56, 0xd1,
  0x02, 0x00, 0x00, 0x00, 0x02, 0x00, 0x00, 0x00, 0x04, 0x00, 0x00, 0x00,
  0x06, 0x00, 0x00, 0x00, 0x32, 0x2e, 0x31, 0x39, 0x2e, 0x30, 0x00, 0x00,
  0xa2, 0xf8, 0xff, 0xff, 0x04, 0x00, 0x00, 0x00, 0x10, 0x00, 0x00, 0x00,
  0x31, 0x2e, 0x35, 0x2e, 0x30, 0x00, 0x00, 0x00, 0x00, 0x00, 0x00, 0x00,
  0x00, 0x00, 0x00, 0x00, 0xb8, 0xf3, 0xff, 0xff, 0xbc, 0xf3, 0xff, 0xff,
  0xc0, 0xf3, 0xff, 0xff, 0xc4, 0xf3, 0xff, 0xff, 0xce, 0xf8, 0xff, 0xff,
  0x04, 0x00, 0x00, 0x00, 0x80, 0x00, 0x00, 0x00, 0xaa, 0x0f, 0x96, 0x3f,
  0x3d, 0x85, 0x21, 0x3e, 0x3d, 0x57, 0x94, 0x3f, 0x0a, 0xf8, 0x63, 0x3d,
  0xbb, 0x67, 0x68, 0xbf, 0x3c, 0x74, 0xcb, 0x3c, 0x94, 0xd9, 0xdc, 0x3c,
  0x98, 0xd1, 0x91, 0x3f, 0x24, 0xcb, 0xa5, 0x89, 0x4a, 0x12, 0xb4, 0x09,
  0x88, 0x59, 0x88, 0x3f, 0x84, 0x1d, 0x5f, 0x3e, 0xe1, 0x2d, 0x7a, 0x3e,
  0xe9, 0x5c, 0x5a, 0xbf, 0x58, 0x98, 0x87, 0x3f, 0x75, 0x54, 0x92, 0xbc,
  0x8d, 0x0b, 0x26, 0xbc, 0x54, 0x94, 0x8f, 0x3f, 0x31, 0x7e, 0x59, 0xbf,
  0x97, 0x3a, 0xc9, 0x3c, 0x34, 0xe6, 0x0f, 0x89, 0x1e, 0xd9, 0x40, 0x89,
  0xaa, 0x04, 0x14, 0x07, 0x29, 0x1b, 0x97, 0x09, 0x6d, 0xc4, 0x35, 0x3f,
  0xe8, 0x9d, 0xa1, 0xbe, 0xea, 0xa0, 0x06, 0xbc, 0x8b, 0x46, 0x89, 0x3f,
  0xd5, 0x6e, 0x99, 0x09, 0xb8, 0x36, 0x53, 0x07, 0x50, 0x3e, 0xb2, 0xbc,
  0xb0, 0xdd, 0x91, 0x3f, 0x5a, 0xf9, 0xff, 0xff, 0x04, 0x00, 0x00, 0x00,
  0x40, 0x00, 0x00, 0x00, 0xce, 0xe7, 0x02, 0xbf, 0x76, 0x92, 0xe0, 0xbe,
  0xcb, 0x83, 0x22, 0x3f, 0x48, 0xce, 0xc4, 0xbe, 0x91, 0xc9, 0x3d, 0x92,
  0xff, 0xed, 0x00, 0xbf, 0xc5, 0x69, 0xeb, 0x3e, 0x55, 0x52, 0xb5, 0xbe,
  0xee, 0xc7, 0xb0, 0xbe, 0x08, 0x03, 0x1b, 0x3f, 0x40, 0x36, 0x96, 0x9c,
  0xac, 0x4c, 0xa5, 0xb1, 0x8d, 0x0b, 0x52, 0xba, 0x00, 0xbd, 0xad, 0xbe,
  0x7f, 0xf2, 0x34, 0xa2, 0x07, 0x9f, 0xbd, 0xbe, 0xa6, 0xf9, 0xff, 0xff,
  0x04, 0x00, 0x00, 0x00, 0x40, 0x00, 0x00, 0x00, 0x84, 0x42, 0x40, 0xbe,
  0x33, 0x2f, 0xe4, 0x3d, 0xea, 0x55, 0xc0, 0xbb, 0x57, 0x6a, 0xdc, 0xbc,
  0xca, 0xc0, 0x04, 0x3f, 0x56, 0xd5, 0xa5, 0xbc, 0x9e, 0x04, 0xa1, 0xbc,
  0x08, 0x20, 0x9a, 0xbc, 0x21, 0x74, 0xe9, 0xbd, 0x7f, 0xc8, 0xf4, 0x3e,
  0x53, 0x21, 0x09, 0x3f, 0x9f, 0x95, 0xdd, 0x3d, 0xde, 0x7f, 0x0a, 0x3f,
  0x24, 0x69, 0xaf, 0xbc, 0x8f, 0xbc, 0x0e, 0xbe, 0x51, 0xe6, 0xff, 0x3e,
  0xf2, 0xf9, 0xff, 0xff, 0x04, 0x00, 0x00, 0x00, 0x14, 0x00, 0x00, 0x00,
  0x64, 0xf1, 0x53, 0x3e, 0x96, 0xc3, 0x23, 0xbf, 0x88, 0x17, 0x4c, 0x3f,
  0x66, 0xac, 0x53, 0xbe, 0x24, 0x0d, 0xaf, 0xbe, 0x12, 0xfa, 0xff, 0xff,
  0x04, 0x00, 0x00, 0x00, 0x00, 0x04, 0x00, 0x00, 0xe5, 0xf4, 0xf2, 0xbd,
  0x84, 0x85, 0x31, 0xbe, 0x18, 0x93, 0x79, 0x3d, 0xbe, 0x31, 0x11, 0x3f,
  0x82, 0xe6, 0x67, 0x09, 0x87, 0xc1, 0xff, 0x3c, 0xb5, 0x71, 0x3a, 0xbf,
  0x7b, 0xa1, 0x98, 0xbe, 0xc6, 0xbd, 0x02, 0x3f, 0x13, 0x98, 0x6a, 0x3d,
  0xe2, 0xb5, 0xad, 0x89, 0xd8, 0x5b, 0xc1, 0x8a, 0x03, 0xc7, 0x0d, 0xbf,
  0xbd, 0x31, 0xfa, 0x3e, 0x5b, 0x5c, 0x53, 0x08, 0x67, 0x89, 0xea, 0x3e,
  0xdf, 0x0c, 0xa0, 0x3d, 0xf7, 0x2d, 0x13, 0x3d, 0xb7, 0xed, 0xf2, 0xbe,
  0xe5, 0xcb, 0x25, 0xbf, 0x0e, 0xb4, 0xe0, 0x89, 0x7b, 0xc6, 0x17, 0x3e,
  0xa2, 0x99, 0xae, 0x3e, 0xd0, 0x12, 0xbb, 0x3d, 0x50, 0x2a, 0x14, 0xbf,
  0x8d, 0x70, 0xcb, 0xbe, 0xf8, 0x80, 0xb0, 0x08, 0xf8, 0xdd, 0xd6, 0x09,
  0xf2, 0x92, 0x2a, 0x3e, 0x17, 0xb8, 0x16, 0xbf, 0x41, 0x78, 0x38, 0x8b,
  0x87, 0x40, 0x26, 0xbf, 0x13, 0x10, 0x75, 0x3d, 0x85, 0xf2, 0xb4, 0xbc,
  0x1d, 0xca, 0xa1, 0x3b, 0x31, 0x28, 0x7a, 0x3f, 0xbd, 0x83, 0xe7, 0x08,
  0x84, 0x30, 0x94, 0x3c, 0xe7, 0x25, 0x4c, 0xbc, 0x2c, 0x36, 0xd8, 0xbb,
  0xb9, 0xcf, 0x68, 0x3f, 0xcc, 0x82, 0x08, 0x3c, 0x8e, 0xdc, 0x83, 0x08,
  0x88, 0x5d, 0x38, 0x89, 0x3c, 0xa3, 0x1b, 0x3c, 0xc4, 0xc6, 0x5b, 0x3f,
  0xf1, 0x07, 0xee, 0x09, 0x75, 0xf9, 0x67, 0x3f, 0x45, 0xf3, 0x8d, 0x3f,
  0x09, 0xc2, 0x76, 0x3f, 0xf3, 0xf7, 0x90, 0xbc, 0x15, 0x50, 0xe1, 0x3b,
  0x4e, 0xfb, 0x9f, 0x09, 0xf4, 0x01, 0x89, 0x3f, 0xe8, 0x7d, 0x0a, 0xbd,
  0xaa, 0x70, 0x74, 0x3f, 0x04, 0xcd, 0x61, 0x3c, 0xaa, 0x0b, 0xea, 0xbc,
  0xad, 0x56, 0xa8, 0x07, 0xfc, 0xc5, 0x94, 0x09, 0x60, 0x35, 0xa3, 0x3e,
  0x16, 0x17, 0x92, 0x3c, 0xb8, 0xe4, 0x67, 0x89, 0x40, 0x1e, 0x07, 0xbb,
  0x92, 0x8f, 0xec, 0xbd, 0x75, 0xff, 0x9d, 0xbd, 0x04, 0xce, 0x42, 0x3d,
  0x87, 0xce, 0xa6, 0xbe, 0xb5, 0xca, 0x08, 0x89, 0xa5, 0xd4, 0x01, 0xbe,
  0x13, 0x2d, 0x3d, 0x3f, 0x75, 0xb4, 0xb3, 0x3c, 0x7f, 0xae, 0xbc, 0xbe,
  0xfa, 0x26, 0xf2, 0x3d, 0x79, 0x91, 0x40, 0x09, 0x82, 0x22, 0x2c, 0x09,
  0x3a, 0x55, 0x46, 0x3e, 0x74, 0x9e, 0xc3, 0xbe, 0xe0, 0x2b, 0x4c, 0x0b,
  0xfc, 0x39, 0xc1, 0xbe, 0x3a, 0xbf, 0x99, 0xbb, 0x45, 0x46, 0x98, 0xbb,
  0x7f, 0x26, 0x27, 0x3c, 0x73, 0x65, 0x67, 0x3f, 0x08, 0x6f, 0x0d, 0x08,
  0x44, 0x7e, 0xb5, 0x3c, 0x95, 0x29, 0x66, 0xbb, 0x33, 0x10, 0x49, 0x3b,
  0xfc, 0x27, 0x80, 0x3f, 0x39, 0x17, 0xaa, 0x3b, 0x84, 0x4a, 0x9e, 0x8a,
  0x22, 0x13, 0xd9, 0x88, 0xd7, 0x27, 0x81, 0x3c, 0x02, 0xe8, 0x78, 0x3f,
  0xe0, 0x5d, 0x4a, 0x87, 0xc4, 0x87, 0x71, 0x3f, 0xb2, 0xcf, 0x87, 0x3f,
  0x30, 0x8a, 0x84, 0x3f, 0x85, 0x19, 0x2e, 0xbd, 0x8a, 0x8b, 0x01, 0x3d,
  0xb0, 0x10, 0xc3, 0x08, 0x96, 0xe6, 0x81, 0x3f, 0x3f, 0xe8, 0x8e, 0xbc,
  0x5a, 0x10, 0x6e, 0x3f, 0xec, 0x5a, 0x4b, 0x3c, 0x44, 0x26, 0x20, 0xbd,
  0x1e, 0xd7, 0x86, 0x89, 0x5c, 0x20, 0xa8, 0x89, 0x9f, 0x1d, 0x9a, 0x3e,
  0x17, 0xb2, 0x11, 0x3c, 0x49, 0x5e, 0x28, 0x89, 0xca, 0x99, 0xb3, 0x3b,
  0x80, 0x29, 0x69, 0x3f, 0x0a, 0x7d, 0x75, 0x3f, 0xcc, 0x41, 0xb2, 0xbd,
  0x85, 0xc6, 0xc5, 0x3d, 0x11, 0x33, 0xae, 0x89, 0x65, 0x56, 0x51, 0x3f,
  0x07, 0xcb, 0xd5, 0xbc, 0x2a, 0x20, 0x5e, 0x3f, 0x5b, 0xe3, 0x24, 0xbd,
  0xb1, 0x9d, 0xbb, 0xbd, 0x3f, 0x6a, 0x96, 0x09, 0xae, 0x6f, 0x8e, 0x09,
  0x62, 0xd9, 0xf0, 0x3e, 0x42, 0xde, 0xc4, 0x3d, 0x2a, 0xaa, 0xad, 0x89,
  0xc1, 0x4d, 0x43, 0x3d, 0x4f, 0x5b, 0xdc, 0xbe, 0x4c, 0x98, 0x10, 0xbf,
  0xb1, 0xea, 0x4b, 0x3e, 0xdd, 0x01, 0xa4, 0x3e, 0xc8, 0x1d, 0xef, 0x08,
  0x1a, 0x34, 0xde, 0xbe, 0x87, 0xfd, 0x0f, 0xbf, 0xea, 0x05, 0x1a, 0xbf,
  0xbb, 0xac, 0x6b, 0x3e, 0x91, 0x38, 0x40, 0x3e, 0xf4, 0x4d, 0x91, 0x88,
  0xd2, 0x63, 0xdb, 0x08, 0xb5, 0xc0, 0x47, 0xbf, 0x01, 0xbd, 0xad, 0x3e,
  0xdd, 0x90, 0xaf, 0x09, 0xc2, 0xe0, 0x94, 0x3e, 0x2e, 0x03, 0x4b, 0xbe,
  0x0b, 0xc5, 0x4e, 0xbe, 0x2f, 0x4d, 0xa1, 0x3f, 0x8c, 0xfe, 0xcc, 0xbd,
  0x55, 0x14, 0x61, 0x09, 0x62, 0xdb, 0x65, 0xbe, 0x2b, 0x0b, 0x7d, 0x3d,
  0x1a, 0x5b, 0x59, 0xbe, 0x71, 0xa3, 0xd0, 0xbd, 0x30, 0x3b, 0xa2, 0x3f,
  0x6d, 0x25, 0xb3, 0x89, 0x14, 0x3d, 0xb6, 0x09, 0x4f, 0xb0, 0x50, 0xbe,
  0x31, 0x11, 0xfb, 0xbd, 0xf5, 0xfa, 0x1f, 0x09, 0x78, 0x22, 0x96, 0xbd,
  0xea, 0x00, 0x4d, 0xbe, 0x0a, 0x9d, 0x53, 0xbe, 0x3f, 0xf7, 0xa1, 0x3f,
  0x22, 0xda, 0xab, 0xbd, 0x09, 0x04, 0x7d, 0x89, 0x88, 0x2c, 0x74, 0xbe,
  0xd4, 0x62, 0x31, 0x3d, 0x86, 0x1a, 0x63, 0xbe, 0x68, 0x2d, 0x52, 0xbd,
  0x5f, 0xb5, 0x9b, 0x3f, 0xa8, 0x4b, 0xb5, 0x89, 0x74, 0x0f, 0xe7, 0x88,
  0x4a, 0xd7, 0x52, 0xbe, 0x01, 0x11, 0x7f, 0xbd, 0x58, 0xc4, 0x47, 0x89,
  0xec, 0xda, 0xeb, 0xbd, 0xcf, 0xae, 0x3d, 0x3e, 0xd2, 0x40, 0x13, 0x3e,
  0xd8, 0xc2, 0xf5, 0xbe, 0xc9, 0x80, 0x19, 0xbf, 0x34, 0xd7, 0x3c, 0x09,
  0xc4, 0x2f, 0xdf, 0x3d, 0xbb, 0xf3, 0x31, 0x3e, 0xa3, 0xe0, 0xdc, 0x3d,
  0x41, 0x89, 0x2d, 0xbf, 0x1b, 0x60, 0x10, 0xbf, 0x19, 0x71, 0xb2, 0x09,
  0xb5, 0x2f, 0xce, 0x89, 0xbe, 0x70, 0xb1, 0x3d, 0xa2, 0xfe, 0x16, 0xbf,
  0x45, 0x95, 0xac, 0x89, 0x89, 0x25, 0x23, 0xbf, 0xec, 0xfc, 0x07, 0xbe,
  0x4c, 0xda, 0x8c, 0xbd, 0xec, 0x69, 0xec, 0x3d, 0x91, 0xe0, 0x87, 0xbe,
  0x04, 0x04, 0xef, 0x09, 0xbd, 0xcf, 0x38, 0xbe, 0xd3, 0xdd, 0x47, 0x3f,
  0x5a, 0x68, 0x90, 0xbd, 0x7c, 0x2f, 0xa5, 0xbe, 0xab, 0x30, 0x79, 0x3d,
  0x0d, 0xbc, 0xcc, 0x89, 0xdb, 0xfa, 0x54, 0x09, 0xb2, 0xb8, 0x71, 0x3e,
  0x83, 0xbb, 0x9e, 0xbe, 0x1d, 0xf6, 0xcc, 0x88, 0x86, 0x97, 0xa7, 0xbe,
  0x26, 0xa0, 0x25, 0x3c, 0x1e, 0x82, 0x3f, 0x3c, 0x79, 0x01, 0x93, 0x3b,
  0x29, 0x3b, 0x66, 0x3f, 0xb0, 0x2b, 0xe0, 0x06, 0x13, 0x97, 0x96, 0x3c,
  0x9a, 0x67, 0x41, 0xbc, 0xda, 0xd9, 0x3e, 0x3b, 0x4b, 0xa5, 0x6f, 0x3f,
  0x0f, 0xa4, 0xc9, 0x3c, 0x5c, 0xe0, 0x62, 0x88, 0x99, 0x41, 0x61, 0x89,
  0xee, 0xfb, 0x37, 0x3c, 0xf7, 0x57, 0x7e, 0x3f, 0x90, 0x50, 0x22, 0x89,
  0x9d, 0x9d, 0x4f, 0x3f, 0x07, 0x21, 0xbb, 0x3e, 0xe9, 0xf5, 0x7f, 0x3e,
  0x80, 0x9d, 0x16, 0xbf, 0xdb, 0xf1, 0x7e, 0xbe, 0x80, 0x2a, 0x66, 0x89,
  0xe2, 0x33, 0x88, 0x3e, 0x97, 0xaa, 0x86, 0x3e, 0x89, 0x1b, 0xc8, 0x3e,
  0x84, 0x4c, 0x29, 0xbe, 0x36, 0x53, 0x13, 0xbf, 0xf0, 0x7a, 0x97, 0x08,
  0x50, 0xe1, 0x6c, 0x88, 0x83, 0x04, 0x54, 0x3e, 0x64, 0x66, 0xb4, 0xbe,
  0x3e, 0x6b, 0xa0, 0x89, 0xa8, 0xba, 0x35, 0xbe, 0xe2, 0x25, 0x7d, 0xbe,
  0xa4, 0x01, 0x5c, 0xbe, 0x39, 0x53, 0x9c, 0x3f, 0x8f, 0x4d, 0xba, 0xbb,
  0xa8, 0xdd, 0x8b, 0x89, 0x9b, 0xdb, 0x91, 0xbe, 0x46, 0xde, 0xd2, 0xbc,
  0x33, 0xbe, 0x6c, 0xbe, 0x6b, 0x1f, 0x62, 0xbd, 0x35, 0x29, 0x9f, 0x3f,
  0xb4, 0x53, 0x89, 0x09, 0x76, 0x88, 0x84, 0x87, 0x18, 0x70, 0x5b, 0xbe,
  0x69, 0xee, 0x04, 0xbd, 0xc9, 0x21, 0xcd, 0x09, 0xf8, 0xbb, 0x7d, 0xbd,
  0x1e, 0xfe, 0xff, 0xff, 0x04, 0x00, 0x00, 0x00, 0x40, 0x01, 0x00, 0x00,
  0xcb, 0xa7, 0x0f, 0xbf, 0x0c, 0x7d, 0xb4, 0xbf, 0xed, 0xc6, 0xd3, 0x3e,
  0xbb, 0x05, 0x02, 0x3f, 0x93, 0x09, 0x05, 0xbd, 0x73, 0x3c, 0x9b, 0x3e,
  0x28, 0x7c, 0x00, 0x3f, 0x2b, 0xe1, 0x12, 0x3f, 0xe9, 0x15, 0xde, 0xbf,
  0xe8, 0x59, 0xe1, 0x3e, 0x44, 0x1f, 0x02, 0x3e, 0x67, 0x71, 0xd4, 0xbf,
  0xaf, 0x62, 0x75, 0xbe, 0x99, 0xe5, 0xe5, 0x3e, 0x5f, 0xb4, 0xa3, 0xbf,
  0xd3, 0x36, 0xe0, 0x3e, 0xd6, 0xee, 0x3e, 0x3f, 0x0b, 0xe2, 0xed, 0xbe,
  0xd8, 0x89, 0x3e, 0x3f, 0x57, 0x38, 0x3e, 0x3f, 0x98, 0xb2, 0xb8, 0xbf,
  0xb1, 0xd9, 0x21, 0x3f, 0x16, 0x81, 0x3a, 0x3f, 0x15, 0x91, 0x56, 0x3f,
  0x0b, 0x9d, 0x54, 0xbf, 0x9c, 0x75, 0x13, 0xc0, 0xac, 0xbf, 0x05, 0xc0,
  0x63, 0xe3, 0xcf, 0xbe, 0x44, 0xae, 0xc2, 0xbf, 0x47, 0x1f, 0x52, 0x3f,
  0x7f, 0x3e, 0x8e, 0x3d, 0x53, 0x7e, 0xcb, 0xbf, 0x2c, 0x59, 0xd1, 0xbf,
  0x12, 0x03, 0x91, 0xbc, 0x28, 0x53, 0x00, 0xc0, 0x24, 0xc6, 0x04, 0xc0,
  0x87, 0xe4, 0x23, 0x3f, 0xf2, 0x3b, 0x09, 0xc0, 0xa4, 0xe4, 0xcd, 0xbf,
  0x54, 0x1d, 0xe6, 0xbf, 0x84, 0xf0, 0x56, 0xbf, 0x22, 0xf9, 0x56, 0x3f,
  0x7e, 0x32, 0x00, 0x3f, 0x54, 0x8d, 0x48, 0xbf, 0xb7, 0xf0, 0x23, 0x3e,
  0x02, 0x43, 0xee, 0xbf, 0xba, 0x65, 0xcd, 0xbf, 0xad, 0x2b, 0x55, 0x3f,
  0xa8, 0x01, 0x5a, 0xbf, 0x09, 0x7b, 0xf3, 0x3f, 0x7f, 0x9c, 0xb6, 0xbf,
  0xb9, 0x0d, 0x35, 0x3f, 0xbc, 0x0b, 0x11, 0x3f, 0xe6, 0x78, 0xf4, 0xbf,
  0x6c, 0x06, 0x33, 0x3f, 0xc2, 0x9e, 0x1f, 0x3f, 0x1f, 0x3e, 0x69, 0xbf,
  0xd5, 0x9e, 0x93, 0xbf, 0x74, 0x53, 0xb4, 0xbf, 0x83, 0xe9, 0xf3, 0x3f,
  0xf4, 0xe5, 0x27, 0x3e, 0xa9, 0xb7, 0xe2, 0xbf, 0xda, 0x7a, 0x94, 0x3f,
  0x62, 0x4d, 0xad, 0xbf, 0x69, 0x5d, 0x9b, 0x3f, 0xde, 0x4e, 0x95, 0xbf,
  0x93, 0xfa, 0x19, 0x3f, 0x53, 0x3d, 0xf6, 0xbf, 0x61, 0xb7, 0xe8, 0xbe,
  0xef, 0xea, 0xe4, 0x3e, 0x8f, 0xd8, 0xde, 0xbf, 0x9e, 0x50, 0x73, 0xbf,
  0x70, 0x9f, 0xe2, 0x3f, 0x44, 0x97, 0x35, 0x3f, 0x12, 0xd9, 0xbe, 0x3e,
  0xfb, 0xa8, 0x75, 0xbf, 0xee, 0xe2, 0x4c, 0xbf, 0xca, 0x90, 0x20, 0x3f,
  0x47, 0xeb, 0x4e, 0xbf, 0x0a, 0x08, 0x2b, 0x3f, 0x64, 0xfa, 0xff, 0xff,
  0x68, 0xfa, 0xff, 0xff, 0x0f, 0x00, 0x00, 0x00, 0x4d, 0x4c, 0x49, 0x52,
  0x20, 0x43, 0x6f, 0x6e, 0x76, 0x65, 0x72, 0x74, 0x65, 0x64, 0x2e, 0x00,
  0x01, 0x00, 0x00, 0x00, 0x14, 0x00, 0x00, 0x00, 0x00, 0x00, 0x0e, 0x00,
  0x18, 0x00, 0x14, 0x00, 0x10, 0x00, 0x0c, 0x00, 0x08, 0x00, 0x04, 0x00,
  0x0e, 0x00, 0x00, 0x00, 0x14, 0x00, 0x00, 0x00, 0x1c, 0x00, 0x00, 0x00,
  0x24, 0x01, 0x00, 0x00, 0x28, 0x01, 0x00, 0x00, 0x2c, 0x01, 0x00, 0x00,
  0x04, 0x00, 0x00, 0x00, 0x6d, 0x61, 0x69, 0x6e, 0x00, 0x00, 0x00, 0x00,
  0x04, 0x00, 0x00, 0x00, 0xcc, 0x00, 0x00, 0x00, 0x84, 0x00, 0x00, 0x00,
  0x50, 0x00, 0x00, 0x00, 0x14, 0x00, 0x00, 0x00, 0x00, 0x00, 0x0e, 0x00,
  0x1a, 0x00, 0x14, 0x00, 0x10, 0x00, 0x0c, 0x00, 0x0b, 0x00, 0x04, 0x00,
  0x0e, 0x00, 0x00, 0x00, 0x1c, 0x00, 0x00, 0x00, 0x00, 0x00, 0x00, 0x09,
  0x1c, 0x00, 0x00, 0x00, 0x20, 0x00, 0x00, 0x00, 0x01, 0x00, 0x00, 0x00,
  0x00, 0x00, 0x06, 0x00, 0x08, 0x00, 0x04, 0x00, 0x06, 0x00, 0x00, 0x00,
  0x00, 0x00, 0x80, 0x3f, 0x01, 0x00, 0x00, 0x00, 0x0a, 0x00, 0x00, 0x00,
  0x01, 0x00, 0x00, 0x00, 0x09, 0x00, 0x00, 0x00, 0x9a, 0xff, 0xff, 0xff,
  0x10, 0x00, 0x00, 0x00, 0x00, 0x00, 0x00, 0x08, 0x0c, 0x00, 0x00, 0x00,
  0x10, 0x00, 0x00, 0x00, 0x2c, 0xfb, 0xff, 0xff, 0x01, 0x00, 0x00, 0x00,
  0x09, 0x00, 0x00, 0x00, 0x03, 0x00, 0x00, 0x00, 0x08, 0x00, 0x00, 0x00,
  0x01, 0x00, 0x00, 0x00, 0x03, 0x00, 0x00, 0x00, 0xca, 0xff, 0xff, 0xff,
  0x10, 0x00, 0x00, 0x00, 0x00, 0x00, 0x00, 0x08, 0x10, 0x00, 0x00, 0x00,
  0x14, 0x00, 0x00, 0x00, 0xba, 0xff, 0xff, 0xff, 0x00, 0x00, 0x00, 0x01,
  0x01, 0x00, 0x00, 0x00, 0x08, 0x00, 0x00, 0x00, 0x03, 0x00, 0x00, 0x00,
  0x07, 0x00, 0x00, 0x00, 0x02, 0x00, 0x00, 0x00, 0x04, 0x00, 0x00, 0x00,
  0x00, 0x00, 0x0e, 0x00, 0x16, 0x00, 0x00, 0x00, 0x10, 0x00, 0x0c, 0x00,
  0x0b, 0x00, 0x04, 0x00, 0x0e, 0x00, 0x00, 0x00, 0x18, 0x00, 0x00, 0x00,
  0x00, 0x00, 0x00, 0x08, 0x18, 0x00, 0x00, 0x00, 0x1c, 0x00, 0x00, 0x00,
  0x00, 0x00, 0x06, 0x00, 0x08, 0x00, 0x07, 0x00, 0x06, 0x00, 0x00, 0x00,
  0x00, 0x00, 0x00, 0x01, 0x01, 0x00, 0x00, 0x00, 0x07, 0x00, 0x00, 0x00,
  0x03, 0x00, 0x00, 0x00, 0x00, 0x00, 0x00, 0x00, 0x06, 0x00, 0x00, 0x00,
  0x05, 0x00, 0x00, 0x00, 0x01, 0x00, 0x00, 0x00, 0x0a, 0x00, 0x00, 0x00,
  0x01, 0x00, 0x00, 0x00, 0x00, 0x00, 0x00, 0x00, 0x0b, 0x00, 0x00, 0x00,
  0xfc, 0x03, 0x00, 0x00, 0xa4, 0x03, 0x00, 0x00, 0x4c, 0x03, 0x00, 0x00,
  0x10, 0x03, 0x00, 0x00, 0xb4, 0x02, 0x00, 0x00, 0x5c, 0x02, 0x00, 0x00,
  0x10, 0x02, 0x00, 0x00, 0x7c, 0x01, 0x00, 0x00, 0xe0, 0x00, 0x00, 0x00,
  0x60, 0x00, 0x00, 0x00, 0x04, 0x00, 0x00, 0x00, 0x46, 0xfc, 0xff, 0xff,
  0x00, 0x00, 0x00, 0x01, 0x14, 0x00, 0x00, 0x00, 0x1c, 0x00, 0x00, 0x00,
  0x1c, 0x00, 0x00, 0x00, 0x0b, 0x00, 0x00, 0x00, 0x34, 0x00, 0x00, 0x00,
  0x02, 0x00, 0x00, 0x00, 0xff, 0xff, 0xff, 0xff, 0x05, 0x00, 0x00, 0x00,
  0x30, 0xfc, 0xff, 0xff, 0x1b, 0x00, 0x00, 0x00, 0x53, 0x74, 0x61, 0x74,
  0x65, 0x66, 0x75, 0x6c, 0x50, 0x61, 0x72, 0x74, 0x69, 0x74, 0x69, 0x6f,
  0x6e, 0x65, 0x64, 0x43, 0x61, 0x6c, 0x6c, 0x5f, 0x31, 0x3a, 0x30, 0x00,
  0x02, 0x00, 0x00, 0x00, 0x01, 0x00, 0x00, 0x00, 0x05, 0x00, 0x00, 0x00,
  0x9e, 0xfc, 0xff, 0xff, 0x00, 0x00, 0x00, 0x01, 0x14, 0x00, 0x00, 0x00,
  0x1c, 0x00, 0x00, 0x00, 0x1c, 0x00, 0x00, 0x00, 0x0a, 0x00, 0x00, 0x00,
  0x58, 0x00, 0x00, 0x00, 0x02, 0x00, 0x00, 0x00, 0xff, 0xff, 0xff, 0xff,
  0x05, 0x00, 0x00, 0x00, 0x88, 0xfc, 0xff, 0xff, 0x3c, 0x00, 0x00, 0x00,
  0x73, 0x65, 0x71, 0x75, 0x65, 0x6e, 0x74, 0x69, 0x61, 0x6c, 0x5f, 0x31,
  0x2f, 0x64, 0x65, 0x6e, 0x73, 0x65, 0x5f, 0x32, 0x5f, 0x31, 0x2f, 0x4d,
  0x61, 0x74, 0x4d, 0x75, 0x6c, 0x3b, 0x73, 0x65, 0x71, 0x75, 0x65, 0x6e,
  0x74, 0x69, 0x61, 0x6c, 0x5f, 0x31, 0x2f, 0x64, 0x65, 0x6e, 0x73, 0x65,
  0x5f, 0x32, 0x5f, 0x31, 0x2f, 0x42, 0x69, 0x61, 0x73, 0x41, 0x64, 0x64,
  0x00, 0x00, 0x00, 0x00, 0x02, 0x00, 0x00, 0x00, 0x01, 0x00, 0x00, 0x00,
  0x05, 0x00, 0x00, 0x00, 0x1a, 0xfd, 0xff, 0xff, 0x00, 0x00, 0x00, 0x01,
  0x14, 0x00, 0x00, 0x00, 0x1c, 0x00, 0x00, 0x00, 0x1c, 0x00, 0x00, 0x00,
  0x09, 0x00, 0x00, 0x00, 0x74, 0x00, 0x00, 0x00, 0x02, 0x00, 0x00, 0x00,
  0xff, 0xff, 0xff, 0xff, 0x10, 0x00, 0x00, 0x00, 0x04, 0xfd, 0xff, 0xff,
  0x58, 0x00, 0x00, 0x00, 0x73, 0x65, 0x71, 0x75, 0x65, 0x6e, 0x74, 0x69,
  0x61, 0x6c, 0x5f, 0x31, 0x2f, 0x64, 0x65, 0x6e, 0x73, 0x65, 0x5f, 0x31,
  0x5f, 0x32, 0x2f, 0x4d, 0x61, 0x74, 0x4d, 0x75, 0x6c, 0x3b, 0x73, 0x65,
  0x71, 0x75, 0x65, 0x6e, 0x74, 0x69, 0x61, 0x6c, 0x5f, 0x31, 0x2f, 0x64,
  0x65, 0x6e, 0x73, 0x65, 0x5f, 0x31, 0x5f, 0x32, 0x2f, 0x52, 0x65, 0x6c,
  0x75, 0x3b, 0x73, 0x65, 0x71, 0x75, 0x65, 0x6e, 0x74, 0x69, 0x61, 0x6c,
  0x5f, 0x31, 0x2f, 0x64, 0x65, 0x6e, 0x73, 0x65, 0x5f, 0x31, 0x5f, 0x32,
  0x2f, 0x42, 0x69, 0x61, 0x73, 0x41, 0x64, 0x64, 0x00, 0x00, 0x00, 0x00,
  0x02, 0x00, 0x00, 0x00, 0x01, 0x00, 0x00, 0x00, 0x10, 0x00, 0x00, 0x00,
  0xb2, 0xfd, 0xff, 0xff, 0x00, 0x00, 0x00, 0x01, 0x14, 0x00, 0x00, 0x00,
  0x1c, 0x00, 0x00, 0x00, 0x1c, 0x00, 0x00, 0x00, 0x08, 0x00, 0x00, 0x00,
  0x6c, 0x00, 0x00, 0x00, 0x02, 0x00, 0x00, 0x00, 0xff, 0xff, 0xff, 0xff,
  0x10, 0x00, 0x00, 0x00, 0x9c, 0xfd, 0xff, 0xff, 0x52, 0x00, 0x00, 0x00,
  0x73, 0x65, 0x71, 0x75, 0x65, 0x6e, 0x74, 0x69, 0x61, 0x6c, 0x5f, 0x31,
  0x2f, 0x64, 0x65, 0x6e, 0x73, 0x65, 0x5f, 0x31, 0x2f, 0x4d, 0x61, 0x74,
  0x4d, 0x75, 0x6c, 0x3b, 0x73, 0x65, 0x71, 0x75, 0x65, 0x6e, 0x74, 0x69,
  0x61, 0x6c, 0x5f, 0x31, 0x2f, 0x64, 0x65, 0x6e, 0x73, 0x65, 0x5f, 0x31,
  0x2f, 0x52, 0x65, 0x6c, 0x75, 0x3b, 0x73, 0x65, 0x71, 0x75, 0x65, 0x6e,
  0x74, 0x69, 0x61, 0x6c, 0x5f, 0x31, 0x2f, 0x64, 0x65, 0x6e, 0x73, 0x65,
  0x5f, 0x31, 0x2f, 0x42, 0x69, 0x61, 0x73, 0x41, 0x64, 0x64, 0x00, 0x00,
  0x02, 0x00, 0x00, 0x00, 0x01, 0x00, 0x00, 0x00, 0x10, 0x00, 0x00, 0x00,
  0x96, 0xfe, 0xff, 0xff, 0x00, 0x00, 0x00, 0x01, 0x10, 0x00, 0x00, 0x00,
  0x10, 0x00, 0x00, 0x00, 0x07, 0x00, 0x00, 0x00, 0x28, 0x00, 0x00, 0x00,
  0x1c, 0xfe, 0xff, 0xff, 0x1b, 0x00, 0x00, 0x00, 0x73, 0x65, 0x71, 0x75,
  0x65, 0x6e, 0x74, 0x69, 0x61, 0x6c, 0x5f, 0x31, 0x2f, 0x64, 0x65, 0x6e,
  0x73, 0x65, 0x5f, 0x31, 0x2f, 0x4d, 0x61, 0x74, 0x4d, 0x75, 0x6c, 0x00,
  0x02, 0x00, 0x00, 0x00, 0x10, 0x00, 0x00, 0x00, 0x02, 0x00, 0x00, 0x00,
  0xde, 0xfe, 0xff, 0xff, 0x00, 0x00, 0x00, 0x01, 0x10, 0x00, 0x00, 0x00,
  0x10, 0x00, 0x00, 0x00, 0x06, 0x00, 0x00, 0x00, 0x38, 0x00, 0x00, 0x00,
  0x64, 0xfe, 0xff, 0xff, 0x2b, 0x00, 0x00, 0x00, 0x73, 0x65, 0x71, 0x75,
  0x65, 0x6e, 0x74, 0x69, 0x61, 0x6c, 0x5f, 0x31, 0x2f, 0x64, 0x65, 0x6e,
  0x73, 0x65, 0x5f, 0x31, 0x2f, 0x42, 0x69, 0x61, 0x73, 0x41, 0x64, 0x64,
  0x2f, 0x52, 0x65, 0x61, 0x64, 0x56, 0x61, 0x72, 0x69, 0x61, 0x62, 0x6c,
  0x65, 0x4f, 0x70, 0x00, 0x01, 0x00, 0x00, 0x00, 0x10, 0x00, 0x00, 0x00,
  0x32, 0xff, 0xff, 0xff, 0x00, 0x00, 0x00, 0x01, 0x10, 0x00, 0x00, 0x00,
  0x10, 0x00, 0x00, 0x00, 0x05, 0x00, 0x00, 0x00, 0x3c, 0x00, 0x00, 0x00,
  0xb8, 0xfe, 0xff, 0xff, 0x2d, 0x00, 0x00, 0x00, 0x73, 0x65, 0x71, 0x75,
  0x65, 0x6e, 0x74, 0x69, 0x61, 0x6c, 0x5f, 0x31, 0x2f, 0x64, 0x65, 0x6e,
  0x73, 0x65, 0x5f, 0x31, 0x5f, 0x32, 0x2f, 0x42, 0x69, 0x61, 0x73, 0x41,
  0x64, 0x64, 0x2f, 0x52, 0x65, 0x61, 0x64, 0x56, 0x61, 0x72, 0x69, 0x61,
  0x62, 0x6c, 0x65, 0x4f, 0x70, 0x00, 0x00, 0x00, 0x01, 0x00, 0x00, 0x00,
  0x10, 0x00, 0x00, 0x00, 0x8a, 0xff, 0xff, 0xff, 0x00, 0x00, 0x00, 0x01,
  0x10, 0x00, 0x00, 0x00, 0x10, 0x00, 0x00, 0x00, 0x04, 0x00, 0x00, 0x00,
  0x1c, 0x00, 0x00, 0x00, 0x10, 0xff, 0xff, 0xff, 0x0f, 0x00, 0x00, 0x00,
  0x61, 0x72, 0x69, 0x74, 0x68, 0x2e, 0x63, 0x6f, 0x6e, 0x73, 0x74, 0x61,
  0x6e, 0x74, 0x32, 0x00, 0x01, 0x00, 0x00, 0x00, 0x05, 0x00, 0x00, 0x00,
  0xc2, 0xff, 0xff, 0xff, 0x00, 0x00, 0x00, 0x01, 0x10, 0x00, 0x00, 0x00,
  0x10, 0x00, 0x00, 0x00, 0x03, 0x00, 0x00, 0x00, 0x1c, 0x00, 0x00, 0x00,
  0x48, 0xff, 0xff, 0xff, 0x0f, 0x00, 0x00, 0x00, 0x61, 0x72, 0x69, 0x74,
  0x68, 0x2e, 0x63, 0x6f, 0x6e, 0x73, 0x74, 0x61, 0x6e, 0x74, 0x31, 0x00,
  0x02, 0x00, 0x00, 0x00, 0x10, 0x00, 0x00, 0x00, 0x10, 0x00, 0x00, 0x00,
  0x00, 0x00, 0x16, 0x00, 0x18, 0x00, 0x14, 0x00, 0x00, 0x00, 0x10, 0x00,
  0x0c, 0x00, 0x08, 0x00, 0x00, 0x00, 0x00, 0x00, 0x00, 0x00, 0x07, 0x00,
  0x16, 0x00, 0x00, 0x00, 0x00, 0x00, 0x00, 0x01, 0x10, 0x00, 0x00, 0x00,
  0x10, 0x00, 0x00, 0x00, 0x02, 0x00, 0x00, 0x00, 0x1c, 0x00, 0x00, 0x00,
  0x9c, 0xff, 0xff, 0xff, 0x0e, 0x00, 0x00, 0x00, 0x61, 0x72, 0x69, 0x74,
  0x68, 0x2e, 0x63, 0x6f, 0x6e, 0x73, 0x74, 0x61, 0x6e, 0x74, 0x00, 0x00,
  0x02, 0x00, 0x00, 0x00, 0x05, 0x00, 0x00, 0x00, 0x10, 0x00, 0x00, 0x00,
  0x00, 0x00, 0x16, 0x00, 0x1c, 0x00, 0x18, 0x00, 0x00, 0x00, 0x14, 0x00,
  0x10, 0x00, 0x0c, 0x00, 0x00, 0x00, 0x00, 0x00, 0x08, 0x00, 0x07, 0x00,
  0x16, 0x00, 0x00, 0x00, 0x00, 0x00, 0x00, 0x01, 0x14, 0x00, 0x00, 0x00,
  0x20, 0x00, 0x00, 0x00, 0x20, 0x00, 0x00, 0x00, 0x01, 0x00, 0x00, 0x00,
  0x3c, 0x00, 0x00, 0x00, 0x02, 0x00, 0x00, 0x00, 0xff, 0xff, 0xff, 0xff,
  0x02, 0x00, 0x00, 0x00, 0x04, 0x00, 0x04, 0x00, 0x04, 0x00, 0x00, 0x00,
  0x1d, 0x00, 0x00, 0x00, 0x73, 0x65, 0x72, 0x76, 0x69, 0x6e, 0x67, 0x5f,
  0x64, 0x65, 0x66, 0x61, 0x75, 0x6c, 0x74, 0x5f, 0x69, 0x6e, 0x70, 0x75,
  0x74, 0x5f, 0x6c, 0x61, 0x79, 0x65, 0x72, 0x3a, 0x30, 0x00, 0x00, 0x00,
  0x02, 0x00, 0x00, 0x00, 0x01, 0x00, 0x00, 0x00, 0x02, 0x00, 0x00, 0x00,
  0x02, 0x00, 0x00, 0x00, 0x20, 0x00, 0x00, 0x00, 0x04, 0x00, 0x00, 0x00,
  0xf4, 0xff, 0xff, 0xff, 0x19, 0x00, 0x00, 0x00, 0x00, 0x00, 0x00, 0x19,
  0x0c, 0x00, 0x0c, 0x00, 0x0b, 0x00, 0x00, 0x00, 0x00, 0x00, 0x04, 0x00,
  0x0c, 0x00, 0x00, 0x00, 0x09, 0x00, 0x00, 0x00, 0x00, 0x00, 0x00, 0x09,
};
const unsigned int model_tflite_len = 3720;
